25AD
A8A8
AB75
AA4A
A5F9
A594
A0AE
AB26
3298
A904
A8E9
AABF
AA28
A560
A836
A81B
A27B
AB30
ACD9
ABFF
A875
AB6C
3144
34F3
A9CA
AC91
2E44
A842
ACEA
AC0C
A537
345C
A49A
3596
A91B
A893
AB1E
A803
D3D
A92D
A8B0
9C70
96C7
A62B
34E8
193B
A185
A1EB
94B9
A76E
A771
A6B9
ACC0
2F5C
A70D
AB57
A8D7
A705
A946
2706
AC58
A351
AB84
9DF5
A365
339F
A985
A2B8
227C
2A20
A4C6
AB74
A8D6
98FB
32B7
AAA0
A60B
9FFF
2F88
A62C
A877
AABF
A29C
A32E
AE11
AB5E
332B
AB5C
A8EE
A812
AB70
A4FD
A8AF
A74B
A86F
3297
20DD
35EC
A9A8
34A6
AB85
193E
A5BA
A822
2C18
9CC6
34B0
3088
A875
AAF5
ACB5
357F
AC27
AB55
A900
AABE
A47E
2E56
A8FE
AAD2
35AD
A720
A8A0
A19F
A9AD
A89A
A216
A94A
2025
236A
AA88
3320
A7DF
31F8
A432
3419
A45C
333D
1B7E
A8F7
A8F0
3441
A5DC
A090
A86B
33D7
A717
2799
31A1
9BBD
32B8
A90B
A95A
A897
A95B
AC6A
A983
A602
2BFD
3466
2FF1
AB10
ACB7
A6D5
A7D4
2142
AACB
A794
A94F
A8CD
329B
3403
32EE
3512
9EFC
A49F
2EC1
AAA2
A8D1
AC79
ACA0
ABDD
ABD2
A7A5
A790
9D42
3208
9CF0
AAEA
9F81
A87F
ACE3
3648
A78B
33CF
A39E
A7BF
AC28
3414
A916
2083
AA26
AAEA
A949
3413
A8BB
AA8F
3267
9D26
3226
A18E
32E9
24A3
9DEC
A825
AAF4
ACB9
A81E
339C
AAC5
A23A
991C
AC9D
2301
2BF2
AC69
A9BB
A998
A560
A991
3541
A9F8
28B8
A785
1CEA
A9F0
2437
A826
AB18
A903
AAC3
31F6
1C30
AA2D
A8AD
2CBF
A94E
A3FA
31D9
AA4C
34F4
A285
AAD1
9D75
A955
A4C0
AAF1
360F
A74D
A7D2
ABA7
AB37
A894
30EC
A481
AC5B
3510
AA57
AC23
A867
A4DF
35C0
A58F
A07D
A763
A4E3
3203
1C91
3110
AC25
A597
A58C
2B31
AC35
A550
1F35
A5CB
A993
3207
A2A6
34DD
A393
AA74
353C
A753
9C50
A30D
2342
ACAD
33D3
A344
19A5
AC56
AD35
A910
AD2E
A93A
ACAB
34B3
A3F7
33CE
AA49
A4FF
A6B0
AA7B
A7A7
35BB
A181
2EAC
335E
A44A
A83E
316D
AC5E
A697
A040
AAB1
30BB
ABDA
A96A
A97D
A69B
A50E
328E
AD1E
A978
A43F
A5BA
9D05
A810
A461
AB10
9EBA
A27A
A811
A727
ABD1
A95E
A67F
AC62
A548
A8EC
3478
9E17
364C
A8B1
A0E6
332F
A15A
A81D
A972
A01A
3190
A8FC
A82D
A5E2
2D4E
A88C
2F9B
34FB
9F2C
A4BF
A81A
A21A
9AAD
2BD5
A8AF
A8E5
33EC
345A
AA1A
A0AE
AA44
A9C2
33FA
2D65
A788
AB53
319E
A919
AA2D
ABE3
A9B7
AAE3
A8BE
9AB5
ABB3
A52E
AB4B
310D
A80C
AC9A
AAB6
3450
34A1
A0AD
A54B
A4E7
ABDC
3400
A0AF
30AE
A9BC
AACA
312B
A6BC
3415
2051
1FB2
AB2C
3242
A47F
AB1B
3434
A829
A029
ABED
AA64
A815
9D39
342B
A417
A9DA
A93B
A0CA
A9F4
A740
3300
A88C
A551
A633
AA8B
A9D5
9B09
AA5D
3436
A832
22E7
A869
A7E7
AB85
A8B6
309D
ACF9
9CD4
A6E1
A1E7
AAB7
A812
A5D1
AC99
A5B6
A8A5
A9D5
A5FC
AAD1
ADA6
A5F6
A49E
AA0B
A747
A826
A8B3
3025
AB8A
A805
A392
A81D
A789
A445
A8E5
A963
1B0C
A483
9DF7
AB60
3542
A939
A4CA
AB9E
AC2F
9E63
A9E1
A899
A95A
A83C
A829
19D1
ACFF
A680
A60F
A881
33E3
324B
34CB
A25F
A85E
A939
A44E
31DB
ABBB
A89E
