94F8
B79A
80F3
A8FF
AEF3
24A8
2A12
8440
87D6
BA6A
26CD
80C2
3723
AC42
8840
3412
B8B0
3043
34F6
AC67
B180
8290
A73C
37BA
8186
AA8C
8865
3397
3826
80C3
3274
B021
AEE5
34B0
80EF
9898
8099
8146
3464
802C
B772
3892
AC71
8611
860A
A71C
B418
B046
38BC
AB95
A81B
A6A0
AB04
B550
8144
B576
985C
B87E
AC5B
86B1
9EBC
2BA0
80A9
34EF
