B56E
3956
B4B7
3A92
B26F
2EAE
280E
374A
39CE
32CF
3912
3594
3E4F
387B
367D
367A
B3A4
AC17
3133
39E0
34A6
2F5F
3A21
3426
302C
3A67
382C
2D69
AD7E
3222
344C
2D32
3835
2C2E
B737
2C9C
B65D
B262
32EE
382E
3926
35FD
392B
83EA
BC2A
38EC
8010
2E12
2C19
B50A
BA81
B151
3869
AC34
36D5
31CB
3B44
3755
3A12
3665
373A
3632
381A
34A8
