1BA0
1E22
20E3
1D79
1DBA
1E44
1DA0
1DE5
1E44
2058
1EBC
1FCC
1C12
1E75
1E8F
1D5C
1D10
1DC8
1F6B
1DA7
1C71
1ECE
1DEB
1D2E
1FBD
1CF7
2141
1F18
209D
1E89
1F24
1F30
1E4F
1D34
2069
1DB5
1EB3
1C62
1F53
1D05
2070
204B
1D25
2087
20C2
1FFA
200C
1B52
1CE3
1C1F
1FF1
1DDB
1F74
1EFF
1DF4
1C5B
1D38
1E80
1DCD
2065
1F3D
205F
1D6D
1CC5
1DE0
2072
1FD6
1DBE
1D25
2060
1FD4
204C
1E67
1EB5
1E1E
2025
203E
2016
1D46
1E2E
2022
2041
1CAC
1E4C
1F17
1E89
2083
1F43
1F29
1DD7
2041
1FE8
1EB8
1F82
1D9E
1FD1
1EFC
1DD5
2009
2179
2010
1E06
1EC0
2137
1E5A
1F21
211F
1F22
1DF2
21A8
1C9A
2194
1E0A
1FCA
1E24
2152
1D96
1F1F
1DDE
1AF2
1DD0
1FB9
1FD9
1F1B
1F96
1D6E
1FCB
21A5
1FEF
1DE8
1E86
1FB0
200E
201B
1D75
215B
1CAD
1D26
1EE6
1CF0
1F71
1EF8
206F
1DEB
1EA8
1DCF
1D6F
1E89
1EF1
1D59
1E92
2071
1E87
1E7A
1DBB
1F1F
1D15
201E
1F36
1FB7
20E0
1F5F
2049
1F4C
1D27
1EC9
2036
2084
20B5
1F2C
2064
1E17
1FF0
1F0B
1F56
1CA3
20C1
2058
1EB9
2203
1F75
1C11
1CF8
1C13
1E82
208F
1EC6
1E77
1CF9
1DCC
1F48
1DC9
1F39
1DB1
2063
2026
1DE5
1EF7
2037
1DF4
2169
2019
1F4B
1DDA
200A
1DA3
1EA4
1D24
1D95
1D10
1DD6
1E01
1E79
1E08
1E04
1EA0
1E89
1EA5
1F5C
2034
200A
1FCB
1DAA
1CEF
1FFD
1FAD
1FF4
1D7B
1C2A
2047
1CC5
1F4D
1DFE
20F0
1FC7
1D5B
1E0B
20DB
1EFC
1DA3
215F
1CD3
1F48
1D59
20A5
2015
2009
1E13
2032
20A4
1C95
1DEC
2007
1D0B
1ECB
1E6F
1F0F
1E95
1EF2
1F1F
1F32
1FD0
1E1F
20B0
201A
1CEA
1EC6
1E68
223C
2024
205D
2086
1D86
1FD0
2135
21EB
1E21
1F97
21A5
1EF3
1CDA
1E92
1ED2
1E12
2018
1F01
1F56
1DE5
1D00
2021
1EFC
1FEE
1F50
1F6B
1F1D
1F14
1BB9
1E01
1E93
1F56
1E88
206E
1D32
1E9E
1CCA
19CC
1C66
1E43
1E94
1DE3
1D73
1F33
1C92
1DAD
1E29
1D04
1ED0
1DD3
1E80
1E73
20F8
1EC2
20D1
2085
1EA1
2052
2007
1F6D
1FF3
1ECF
20F7
1E6D
2098
1DA5
1F00
2065
1FA4
25A3
1EDB
211B
20AA
212A
1EA3
1E46
1E4B
1D42
1C0C
1DA7
1F98
1C82
1D9E
2021
206B
1D0F
1D18
1DD9
1DDE
2105
1D9C
1D5F
2102
1CA9
1E23
1EB8
1F6B
2041
1E1E
2100
1F57
1F7A
1EB8
1DAB
1F97
1E6E
1ECA
1CAB
1E96
1F6D
1D02
20D7
1FB8
1E70
1FE8
1EB3
1E08
2090
1E6F
1E4D
1EC6
1F70
20BC
1FD2
204A
2016
2045
1FA3
1D5A
21BA
1E95
1DBB
1F0A
1E1C
207A
1D4C
1DE2
1AE2
1E13
1D83
202F
20C7
1ED6
1E1E
1E3B
1E1C
2084
1EE2
1EB3
1F92
1FE7
1DA7
1FB9
1EAC
1C61
1B40
1CA3
1EC7
1E59
2004
1DD2
1D61
1F04
1D0A
2033
1EC5
1D81
1EF4
2126
1E07
1DCC
1CF6
1E15
1DF2
21DA
2081
1F02
203A
1EB5
20A6
1FE1
1FBA
1E00
1EE0
1F90
1D26
1C91
1E4A
1CB3
1D8B
1FBD
189E
1FC1
201B
1E5A
1D9A
1D48
1EA8
20A0
1C95
201D
1F0F
1BA6
1FC2
20F7
1DE9
1DFE
1F86
1E70
1F2E
2025
1D2E
20AB
1F74
1E82
1E1D
207F
1D5B
1CCF
1F75
2173
1E39
1E3D
1E3F
1FA0
1E72
1F29
1D31
2059
1F55
1E66
2071
20C3
1D45
207A
1D5E
1EDD
1F8C
2023
210F
2035
1E01
1EAD
1C6F
