1D1E
1CC8
1DDD
1C82
1C3B
1D13
1F93
1D1A
1CE3
1D0A
1E09
1E17
1C32
1BBF
1C91
1D1E
1B7D
1DE0
1C23
1CAA
1D11
1C8F
1E72
1F46
1DA7
19F0
1C6C
1CD2
1D08
1C8C
1CD2
1A6A
1D89
1C83
1C29
1B9A
1C38
1CDC
1C40
1DF5
1E5B
1CEA
1D2F
1C10
1E5F
1B80
1E0A
1B63
19E4
1D8F
1ACA
1E0B
1CA4
1979
1DA0
1DA5
1DDC
1BFB
1C77
1CBE
1D11
1DAF
1EFA
1CC8
1D8E
1B68
1BBF
1C37
1CB8
1D00
1CA1
1B5A
1CAC
19FE
1D02
1C6B
1F15
2005
1E0B
1C12
1EC8
1CED
1C91
1A69
1C8D
1D43
1CD8
1C21
1B56
1A66
1EC5
1E0D
1BB8
1C29
1C9F
1D0A
1E02
1D26
1EF8
1D6B
1C0A
1BDD
1E00
1B67
1D62
1881
1C5E
1B6B
1E20
1E14
1C36
1DA7
1D01
1AED
1D44
1C07
1AEC
1D0C
16BB
1ADE
1EE2
1EAB
1BD4
1C77
1E43
1EDD
1E38
1D15
1B17
1BAF
1CDA
1C50
1B56
1D85
1B09
1EB6
19F8
1D4A
1C83
1DF7
19E9
1E67
1E4E
1D11
1CF9
1924
1B82
1A7E
19E0
1C19
1C9A
1BBB
1C16
16CE
1C4A
1C5F
1C80
1C35
1C49
1E2D
1E39
1E31
1D97
1D88
1CD5
1A9D
1C6D
1A11
1DD4
1CDA
1A0A
1C7C
1B23
1DBB
1D8D
1C84
1EAA
1E5E
1C15
1CF8
1A67
1C7F
1B98
1D3A
1B94
1C3F
1B39
1BC1
1D0B
1C07
1C5D
1CC1
1E34
19FA
1C58
1C9D
1CFF
1A0F
1D55
1D7D
1AB6
1ABF
1BBF
1CDA
1BA9
1D21
1B1E
1C6A
1D34
1DD5
1D9F
191F
1D58
1B50
1DB3
1C48
1D92
1CAC
1BCC
1CCD
1BA1
1992
1D37
1C30
1D2D
1E94
1D34
1FBD
1BC6
1EEB
1E54
1A6B
1E95
1CC6
1DA5
1D22
1D85
1C4E
1BE7
1DB3
1A10
1AAD
1C44
19E4
1CBA
1B60
1C01
1DAA
1A77
1D3E
1A5E
1B84
1E5D
1B7E
1C46
1CAF
1B94
1B63
19D4
1BC0
1B9B
1E03
1D9D
1C11
1AFF
1E37
1B21
1BA1
1CB0
1E4B
1D7D
1CD0
1CB2
1C43
1A67
1D8A
1D4C
1DE1
1B9B
1B9F
1CAE
1B7C
1D55
1D5A
1B7A
1D6B
1DBF
1CEE
1C47
1DE8
1C31
1E56
1F81
1DA8
1CC1
1DEC
1D45
1C1C
1C1F
1E38
1B18
1D3A
190D
1C74
1E29
182E
1C4B
1EF8
1E07
1C00
1D98
1D11
1C6A
198C
1C55
1DEB
1D9D
1C84
1BB1
1C44
1B9C
1CA8
1C17
1D48
1D29
1D4C
1D8E
1C0F
1CF0
1D08
1BCC
1CAD
1D16
1C3A
1DDF
18C9
1E83
1C56
1A18
1BD9
1AF3
1D0C
1CF3
1B2D
1CD6
1C08
1CB8
1EAB
1CBA
1828
1C1B
1F23
1DF5
1E26
1D06
1C5D
1C98
1D79
1ED4
1C47
15B9
1DED
18BC
1F01
1CAB
1BEA
1C1D
1CFA
1E2A
1D02
1AAE
1D6F
1B4E
1B5A
1C9B
1C75
1BD1
1D53
1C29
1DED
1960
1815
1CD6
1B63
1D7F
1C76
1CF9
1B12
1C42
1D74
1BA8
19C5
1C5C
1D83
1D31
1CC4
1C62
1D52
1ACD
1CEF
1BA3
1CEA
1D6F
1CDD
1E4E
1B15
1C2F
1CEE
1BAE
1D04
1B46
1D0F
1D31
1C5C
1F8D
1C54
1CAA
1B45
1E62
1898
1A62
1CC0
1BD7
1696
1E3A
1D27
1E42
1B5C
1CE9
1C68
1DE9
1D13
1B67
1C2A
1B24
1DD9
1C61
1AA7
1D28
1E67
1D65
1EBD
1D5B
1A29
1C41
1D53
189A
1909
1B4E
2065
1CBA
1AB8
1DA5
1DD6
18CA
1C0F
1B99
1B53
1C6A
1E14
1BC3
19BE
1E90
1D72
1A5D
1E07
1C70
1C68
1E05
1DC5
1DEB
1C91
1D4B
1DC0
1E18
1C33
1DAC
1E47
1C67
1EFC
1D07
1F3D
1C78
19D8
1C7E
1B31
1D65
1C27
1C8B
1DE6
1C08
1C5E
1C1B
1DC9
1C89
1BFC
1B8E
1EB2
1C9E
1E5E
1CE5
1F8C
1E10
1E82
1C47
1CDA
1AA0
1CB5
1C09
1F3B
1ADF
1ED6
