24A4
2140
D33E
209E
2575
25D7
2314
226E
2516
2407
1D9F
32BF
24D4
1E0E
2DD8
A2B1
2564
22DE
23EA
2404
2258
2454
2367
2291
1F52
1E97
25DC
24BC
2576
25EC
236F
21AE
24FA
2533
2540
256E
2299
24E3
260
208C
21A3
25ED
22CE
2B8C
259B
2638
246D
203D
4054
D2FB
25BF
24DB
24AF
21D6
254F
4F4A
2570
230B
2268
21B6
22B0
2322
2450
24E3
256B
2559
2647
2091
2214
22D5
21F5
A056
2508
25D4
20C2
30D8
AA8E
1CBE
21DD
2587
9EE0
2346
2547
21A1
3068
1C6D
A95C
24AA
2585
242F
1D50
2587
2B92
2491
252F
1FDB
25A3
22E8
23CD
20CF
2531
24CF
B1D1
2154
2386
21F6
AF1F
2251
D486
217B
1F93
E40
24A5
225A
24EC
280F
2503
2491
2648
26D3
1D43
1D2B
4299
257F
2507
2578
1E7D
2476
