3733
326D
2354
30B0
36A9
AC39
B775
36AF
38EB
B639
335C
86C1
38CA
35BB
8386
808F
390D
36F2
291F
33AE
39E6
3530
3136
B2E0
3506
37BA
8131
385E
3C55
B61D
3450
3280
99B6
3B56
380B
3498
345A
380A
8001
3687
3938
38F7
3BA2
82FA
2CBD
813F
3131
3078
92E2
A97E
3735
3B2A
38A6
2898
36D1
9F3C
3846
B109
318B
AE58
35B0
34D6
3982
3450
2E26
33F0
80FA
2A40
2DA5
3330
36C9
80B9
29B3
AD7E
B0E0
880F
840B
253D
9A43
3162
819E
2FE4
3A08
B630
8446
34C5
B0D8
38E3
3A99
39B9
2CC1
BA08
829A
3987
B579
35AB
370C
3682
384F
AC07
38C7
3BB9
8404
3850
3898
3812
87B3
3068
A73A
ACB8
2C2B
8005
3934
3179
3ACC
811D
AFC6
38C4
3925
3BCF
33DA
21BC
9AF7
3939
3A8C
3B57
30F1
39E3
