31CC
3561
3024
3589
3780
2B45
279A
A29D
31E1
3073
328B
34E4
306B
314D
36F4
3424
2AAF
3733
31B5
30D4
3508
35B2
2DE7
2CF8
AB5F
35B7
36F3
363A
381F
AF44
2E1C
3056
B267
334B
32B4
34EA
3846
2D58
359E
33E4
3224
335C
36D3
33D9
3266
A498
31A3
345E
2EC3
2900
3198
353F
306F
3529
2C87
325E
319A
34A5
A07C
B654
306A
3217
3522
2B47
33DA
305F
2FD4
27BF
283D
354A
36C0
242E
A4CE
3557
2D14
3791
2E8B
3296
31F5
342F
30C0
B556
3084
3644
3061
3408
2DFC
3639
32E6
235B
34ED
3293
3743
36FD
3220
2CD3
AAD1
3235
2ED4
32A3
3114
3804
2DF0
2C94
2BF3
35CF
3246
3002
B457
341B
3617
A47C
AC62
B221
32A0
3049
30FF
3609
3225
32A8
34FF
2FC3
31EE
3321
34DF
3225
2EEE
2CDF
35AB
34F2
2C85
3084
334D
30D4
2F75
3506
2C4D
3103
23AC
2FC0
33BF
36EE
1B4B
3517
2E66
33D2
34D9
36D7
2FC4
2F95
34EA
3426
37DC
30C1
318C
A397
35CC
3089
3499
2DA2
3227
35DE
2A00
358B
97E4
3457
337A
2C9F
3474
3446
319E
9F2F
346B
3403
327B
306E
2E8E
3346
2D59
3478
3226
317A
2EC2
AF1C
3354
3329
312F
30B2
35B1
3192
2E8E
304E
318C
A624
3427
315A
2F0F
3351
31A6
ADB9
28BA
3183
AF3B
2D71
1C05
2437
310A
BA1C
3501
B599
2F19
3457
B4FE
34E5
3744
3260
2E79
353B
352A
35D8
B769
292F
325C
3465
2F09
1023
337A
35B0
33D2
3202
2EBB
36A1
2D8D
34C0
2AE1
3680
351D
29F8
3462
28B2
34A6
322B
3492
35F8
3336
34CB
35A0
31A3
3320
3231
317B
356C
34E2
31E4
3665
35E0
316B
3293
37C9
353D
353D
258E
31E7
3717
2FC5
3411
3060
29DD
3991
347D
2F5A
3232
2F80
314E
35E3
3084
35F7
35D3
3381
346D
2FEF
302E
3278
36FE
331C
3743
3416
254B
2C6D
3528
30D2
2E20
326E
3047
2F1C
2C02
325D
35AB
3115
3651
30A7
35CF
32F9
29E9
303E
32B8
2DEF
325A
3104
308D
3392
332A
2FE8
34D8
32B0
B28C
3455
2F2C
2CA3
2CF0
32E4
366A
3508
31E7
9FA8
3176
AA1E
34CA
3275
366B
31F7
32DB
334F
3811
36E8
3172
2D4F
322B
3030
3273
30A1
329C
30CA
33E0
320E
3686
301D
AC48
300F
AE99
352B
2DB9
3208
3495
314C
334C
3302
2CF5
3307
2DCD
34BF
34FC
30A6
309F
327E
344E
3553
3698
3055
34C7
3380
3543
32BF
342A
1D3E
2EB1
35C6
3638
343D
3403
36E9
325A
32B4
B420
3507
3085
3433
36A4
3561
3539
B81C
31DA
3197
322A
3030
3164
3309
3531
28B7
31ED
2C40
3264
380B
3530
3143
3147
33A8
3361
2E04
35DE
355F
359D
313B
B11D
2061
32AD
3988
AB8B
34CE
3503
345F
3034
3017
3361
32A4
3532
330D
3293
36F7
2D4A
371B
310D
33CE
3252
296A
3539
338F
3356
3416
30E5
3304
35A4
2FAD
374C
352B
32D0
34AF
33E9
32A8
34E5
2FE7
34C1
369A
2B08
2DC9
36C5
369C
2F22
2C87
AD4D
325A
3304
2CF1
1F6E
340F
3345
31D1
B49E
2D9A
3444
2058
2FD1
345F
314A
30BB
32F3
35E4
358C
34F4
300D
2362
2C82
39EA
3461
34D1
334C
2F6E
AE7E
3574
331E
2C5F
30F1
3544
3072
34A5
20EE
31C7
30B1
340F
3700
2A63
3255
348A
35E3
A87D
344D
346A
324A
3053
3077
252F
350F
