30E1
3389
3284
2FDA
3234
AE03
2E62
31CE
2DDF
2F29
3126
2E64
2E79
3771
B232
2D49
3359
3144
B86F
349E
2E06
21BD
34A2
2E5C
3012
B43D
3141
ACF3
3170
331C
2DB6
B25F
2EA8
349D
312E
2A12
2F05
319C
3435
B1BA
2682
314B
2F97
3261
2B67
B168
34C2
B943
2BE2
323C
2CBB
A3EF
316F
307F
2F17
28E8
2AF1
2772
3179
29BD
305E
347B
3163
B80E
34EC
AFFA
308D
ADAF
AE9A
3074
2A2E
321D
B562
31A3
AF50
2E29
30CE
A395
A999
2E60
259D
31C5
B505
2967
315F
AF8C
A2C7
B04B
2C45
2FA1
AF7D
3571
2507
2DAA
2C15
AECC
2ED3
324B
3231
2E9A
3398
330F
2C27
324D
AC33
9EA4
B4CC
A103
2BB3
B3A3
2EE5
2F81
274A
3477
29FB
35A3
2D00
347E
B4BB
A845
2E14
B7BD
380E
309C
2D87
2B9B
2835
304D
2998
31D6
273E
A9E8
3420
2C4F
3207
3318
294F
2D23
AF0C
318F
2BD1
3073
3320
AED3
2B77
314D
2B78
AC24
2BEB
2FBE
3167
2CD8
32D0
33A9
2CDE
3067
2F5B
A446
2DB7
3304
25C4
3393
32A1
2D1C
2C08
295C
2214
AC59
AFC2
328C
32CB
3404
A457
334B
2FA3
31AD
333E
32D8
3187
28E2
2AD8
3417
31B6
2DF6
2B1D
2C48
B117
3286
AD79
2BB1
3009
2675
2EFE
31C6
33FF
AB72
3556
330C
29DC
286F
259D
2CEB
2EC7
3415
2ADC
3308
2F1F
ACDA
3540
AB1
AD17
291B
24AE
25A6
3174
1D5A
2E01
3232
2E59
A94F
B662
2DA3
34B7
347E
312C
2EDC
ACD2
316F
A2E1
B02C
330B
290A
B8D3
AC6D
A351
B3CA
2B47
35E7
325B
28D0
A5B6
373E
2FEA
3144
2AB0
2806
2876
B21B
3163
3643
30B5
341E
2C2C
3129
2D37
306C
A926
3010
3092
A9AE
2A77
3292
B536
2DF3
320D
3080
32B9
3337
33AD
33F8
BC49
36DA
AD2D
2F28
3229
3322
3055
B00E
AA8D
A89A
AC2D
3010
3070
35C6
3107
3155
3412
B867
2EAE
2CF5
2E68
2C59
2F53
36FC
3566
2D92
A7CF
30E9
2B8F
AF57
301A
2AF8
AA22
3159
AD65
2E7C
342F
2C85
331B
313D
28C2
3356
3429
2BC7
3238
B004
2F7F
AD52
32CC
AB60
2938
31B9
AF2C
364B
3093
31AE
AEF0
AC81
30E0
35C7
2F3D
1A06
34EF
3209
AFEF
ADD0
351A
304B
296C
3120
B766
9CEA
3203
B10B
2938
31D9
2EBE
3646
2C16
2B62
3153
2D58
310A
B656
A7D0
34B4
AD9D
2BC6
2947
B0F5
2D22
B184
26BC
3802
2ED4
ADF7
2A71
AFFB
2D3D
A439
2862
308F
300C
B40B
323B
35DD
3694
B185
2971
B4E9
3449
3255
AE2E
A898
34B4
320A
3717
2EBA
B7ED
3018
2EB6
AFF4
2D6F
2E09
3360
3028
33A5
3476
320E
31FA
32A0
34F9
31E9
273E
A91C
3418
2EFD
358D
B2B3
2C16
AD28
2D18
32D5
3494
B210
2BDD
B325
3400
3086
ADF4
2F51
2A22
B130
B43E
28D2
34AC
26E4
3110
B6C9
AA5E
2FB1
3566
35E9
B217
29DA
AD03
2065
2013
30FC
2E5E
2EE9
2D94
2C66
3394
B2CB
36FB
1D2E
306A
3237
2C1C
28B4
2C44
3187
3626
2C9F
2FD7
3239
3013
A35E
B90D
31B3
35A4
3454
9825
2E8A
A873
2C6D
3303
34A8
3542
2FB2
3323
29A7
31B5
3496
ACC2
3116
3401
2FAC
3440
2BA2
2A65
AD68
3007
BCC8
2565
3117
AC1E
A49F
34BB
39E3
ACFC
2FEB
3259
31F9
ABD9
314C
323B
B162
181B
2B78
AF6E
2F79
2EB4
339A
B1D7
31F8
347D
34A9
9FF4
2958
AEEC
