23DF
ADE8
B553
AED1
AC1F
2D46
AA26
AF4C
AC79
AC88
2117
2863
AC23
ABF5
A795
AEFC
A9A7
31E1
A8C8
2A2C
301F
AEEC
2C1A
AEB2
2EE5
2F9F
AFFB
2C4B
2664
2D2A
2B62
AAAB
A441
1EA5
1DB4
30EC
B17A
32AD
292C
283F
9EC8
A86D
3286
2EB3
A389
B235
B084
25C8
32A5
A0D3
A1DC
B013
B26A
B061
240A
2B65
2819
A043
A89A
AFF1
25BC
2A02
A30C
2420
B14A
A9CF
AC3D
A917
2E54
ACA5
2190
ADAF
2815
28CE
B1A8
20F0
A851
AC03
3177
A988
A919
B2D8
2C73
AC34
A781
30CD
B008
274E
2B5F
2C90
25D4
A78E
A83B
AA58
AAFF
2DF7
A67E
2B28
A7EB
B17B
3057
3393
A0EE
AD7C
AD35
AD3F
AF23
AF95
2C3C
AFE3
3508
A9CF
A713
A440
B0AE
A60E
A5A1
B08F
2D22
33CB
3098
2C03
AFB2
2D07
AC93
2CD4
A9F6
AE3F
3197
AD74
25CF
A28D
ACEB
B47A
300D
A256
A2FF
2E47
AFE1
B387
A8C7
B440
B04B
B038
B510
2F6F
3028
A40C
AD52
1F28
B159
A735
272F
AAB0
3069
AE95
B0BD
AC3B
2CF6
B513
B258
B0B1
B685
AB1C
B0A5
1CDC
286D
AD5C
B083
A105
2850
2D77
261A
ADD1
30EE
9F49
B1F2
A7C7
AB35
2878
2C37
9C89
1D26
AAC8
AFE2
B061
A084
2A7B
A58E
28A2
30EB
2F64
2AC9
B2E9
AB10
2A11
2D17
B258
B1BF
2C4B
B45E
272D
15AE
25CE
AA94
2E4B
282D
1A92
B057
299F
A857
AE0D
AF9F
AE6F
2E7A
2EFD
30FA
2EB4
2975
267A
2E59
A46C
30C2
AABB
24F5
B312
AE6C
9D26
2E7E
9890
A9FD
2D8B
2686
A676
18F
16D1
B139
A9F4
2446
2187
A9A7
9B1A
AAC2
29D3
B34F
A7DA
AAF9
2685
2C35
ADA5
2DE5
2F49
B043
3291
B4B8
ACD3
2FBA
A114
A692
AD5B
AEFF
2C7D
B228
3062
2DE6
3636
B497
B1B6
B0E0
B19D
A76D
A390
29EC
AB1C
B38F
ED9
3191
A548
AA8C
2AB4
269C
28FC
B00D
9C93
AAA3
2F5E
2837
ADAE
2898
AC56
ACB4
2B68
A251
1B31
2BEA
2EE9
25C1
B0FF
2F39
AB49
1B4C
B096
243D
1ED9
30B2
A700
3476
A5A0
AC8C
AF1F
A848
ABE5
A8D1
3365
AF43
A197
A65C
8FD3
2DBC
A68C
B02D
B3C7
AB71
AE2A
9F9B
A85B
B093
A48A
2C8A
22FC
307A
AB6D
B58A
2E85
AD02
AD44
AFA3
B12A
AC14
AE1E
B6E4
B52B
2705
2716
B159
ABC0
2E35
240D
B254
28CD
B25F
B558
A4E8
B0A5
AC11
A72A
2B44
B3AD
2CDA
346E
A98A
28AA
A96B
1D16
2972
AEAA
3126
B07C
2BAE
B0FF
2F3C
A433
AECA
2AF4
2EB4
2C82
AC0B
A568
A767
2A1B
289B
A925
A991
302C
B46E
3015
2394
B41F
A79F
A867
ACE4
A7AC
B1D7
AAF6
A789
A9BD
9D26
AE7D
27C2
29F8
A0E9
A573
2823
AEB8
27BC
3412
B0F8
2834
ACF2
B24D
2B3A
351A
2DC0
B48E
2A68
B1BF
B10C
32EA
B3D6
A328
2EC5
22C6
2189
2C7F
2CF9
A66C
B211
2A3A
B427
B4A1
ACB5
A504
AF69
A458
3132
AB08
B576
2CD0
AC08
2E29
AC34
2563
B01E
2EEB
2B50
1D7A
AC3A
B2D4
255D
3012
B531
B074
2FE3
348B
2AED
26AE
A127
AFF4
B28F
310A
2AE5
260D
A843
2756
2D3E
2C2E
B247
A614
A66B
A88E
282C
2E87
8E69
A442
A588
B2EE
2C65
B219
20F5
A806
AFD9
B059
B7D1
A0C0
B414
A20B
2C57
A8C3
B135
A49A
A7B3
A9E9
B06F
AB5F
2BBE
A680
1CE0
B269
A9A8
B11F
9E18
3175
AD4B
A867
AC79
B21A
A9AB
AD76
A4C1
2060
A6B2
2B35
