3018
2E34
31FE
354F
2EB7
35A3
3026
2FFD
B268
B58A
3009
3459
30AE
315F
2F9D
31B5
AF5B
2FD5
B02B
A17D
B6DD
32E2
3047
B2C5
2F91
AD5D
2BFF
22D6
2B7B
B5F2
3421
3517
331D
304D
3457
307E
29F6
332B
A7F5
3235
B4C5
2919
3017
AB0E
336C
B504
3532
A1F8
AE03
B742
311C
3435
2B0B
2D1E
B347
2B28
3322
341A
2ED9
B105
311C
3054
33F2
2B6D
AA0A
3312
30C6
AA3E
A6CD
316B
3119
2C7B
2F81
B600
2E11
3222
8002
304D
36C9
2ED6
34C7
2D87
8901
3307
2C58
344B
87D1
3231
2E91
301A
AD84
2B9F
2671
21CB
2AD6
A929
2D24
3509
AC28
2DE3
2DBC
33B9
B4DB
338A
3410
B112
345B
347D
B07B
9D50
2127
2B25
8003
3199
1C44
2A93
8261
ADC0
3736
2E63
34F6
1ECF
A6C6
2F29
8213
30D9
30AB
323F
34F5
B405
B1CC
325B
B698
38C5
322E
2FA5
3430
3155
308F
352B
2D84
B865
3655
3249
32D8
34AA
2924
2997
28C5
882C
B00B
301F
A67D
298F
94AF
3254
988E
B1D8
33DB
35C3
B430
B307
1EB6
31A7
345C
33E3
2E58
AC8D
3316
311B
8005
B1FD
3441
803F
3674
325B
28C5
B0BB
2B52
AB4E
2845
2F06
A45B
AEFA
B462
2ECB
3308
2CFB
2E72
956F
B2C5
332F
34F7
2F87
A9CD
3616
AFBA
B17C
324B
A264
33C9
2E25
3404
AC26
B4F4
2BC5
3214
309C
3048
9B9C
385F
2C6F
309A
3495
A484
2047
30DF
AFA6
3267
AA31
B280
2C13
A625
B2AB
A96B
307C
3340
3136
2D52
33A2
319E
301A
AD85
ADA3
3007
33AF
2E58
B577
B0FE
3058
B166
2FAC
3066
316C
A592
3417
190B
AC3A
315A
2697
3617
325A
2E0A
B038
3436
ACC8
