1C16
1E9B
1AA7
1E41
20D6
1DA6
1EEB
20B3
1F93
2068
2028
1EE2
1F4B
1E9C
1F29
1E58
1C95
1C74
2089
1D0E
20CC
1CB0
1F29
2019
2150
1F13
1F13
1E43
1E6E
210A
1FF2
20AB
1FAC
1D1D
204F
1DBF
1F99
1DAA
2097
1992
1D4D
1FE8
1EE9
1E7A
1DBB
9F57
1E22
1C96
1F00
1FB5
1B89
1DEA
1FAD
1C08
239C
1F3A
1DDB
1DDB
2042
1E06
1FBA
1CD3
1F2F
1D15
1F3C
2032
1D95
1D0F
2092
1E00
1DA2
1F36
1EF6
1EBC
1E34
1CD5
3C2
1D78
1CDD
1FF0
1BC6
1D9B
282B
1E60
1C24
1E76
26A5
1F58
1E74
20F7
238F
1DDB
25B0
20E1
21E9
1F43
2013
1E13
2045
1F41
1E71
2045
207D
1F27
1F02
206E
1E5A
2082
20EF
208A
1CCD
2034
741
1EED
20DF
1E86
2874
1D54
1D6F
1F6C
1E09
1E27
1DC6
1D06
25F8
1ED3
1FBF
1F1B
1B6D
210D
25AE
1F29
20A4
2121
20F8
1C1F
207D
1ECA
1B75
1EBA
213B
22C2
1F5B
1EFF
2080
200D
1CCA
2153
2171
AE35
2125
1CEA
1DFD
1C56
1F02
1ED0
1B59
1E56
1F04
1E30
1E85
1EA7
2034
1E86
1CF5
2044
1D2C
1CF5
2079
1F1A
8A2C
228D
1D6C
100E
1E9E
1E68
1B6B
2135
1E62
2072
1D1F
1BEF
1D67
20CD
21A1
1DCE
1E38
1EB1
2099
2367
1D68
1DE2
1FC9
1ED8
1E98
2016
1D79
2020
1D08
1E28
205A
1C55
1F18
2AA7
2111
1CC3
1E91
1FC2
1C8F
1DE4
1DAD
1EA5
1F28
1F22
2101
20A4
1EAE
1FAC
1F83
2090
1F80
1F6F
1DEC
20D4
1D20
1E2F
1FD9
1F3E
1F8B
204E
2099
1DC2
20DC
1ECB
1DEE
1E48
1DFA
1F5C
205C
1DA4
1FA2
1EA6
1FBF
1D12
1F3B
1F57
1F83
2061
221F
1C78
1D42
1E78
2089
1DCF
1F55
1F17
