1D42
2003
1B93
2003
1F37
1D0D
1FF7
1F5A
2086
1FDD
1DA0
1F2A
21CF
234E
1FA0
205D
203A
1D99
1FF2
21B7
2174
1D95
20A5
1C95
1E22
1E63
1FBD
1F14
211F
1E53
1F25
2061
1E07
1E6E
20F6
210C
1F90
1F28
1F14
20B8
1DA5
2145
1DA6
1F0C
1F0C
1CCD
20D9
20B0
2067
1FEF
204C
1ED0
1E45
202E
2043
2029
205F
1DF8
1DFF
2054
208C
1FC3
1DFB
1E14
2058
1CE2
1E92
225A
1FB2
1E92
1FE2
1F83
2056
1F62
217E
1DCA
1ED9
1DF6
2006
1EAB
1FEB
1EDA
1E93
204A
1D6B
1FB7
2004
1DE6
2191
1FE9
207B
1EC5
2122
1EA3
1E40
1DAE
203C
20F6
1FC3
2069
1E87
1D32
207C
1E51
201F
2165
20E9
1EF8
21D9
1D7E
2170
1F33
205B
1FEA
1F24
1FF6
1D44
1F5B
213C
1DDF
1EFD
220B
215B
20BE
2131
21D9
1EF7
2011
1ED0
1D73
1EC4
1DF2
1EC5
2166
1D01
215C
2181
1CC1
2101
1E6D
1F6F
1F99
2053
1F29
1CAE
1DC6
1EC6
1FE6
1F4D
1F01
1D85
2057
1F89
1F62
1E5B
20F1
21F6
20AF
1F3C
1EDD
20CF
1F9D
1ECA
1EE5
2046
2033
2035
2134
1EB7
20A8
1E15
209F
1F1A
1D45
1E81
1DBD
1F83
1FB5
2039
1E0F
20EC
20FC
1D77
1EC3
2096
2152
1FF5
2000
2054
1CBC
1E99
2168
1DBA
1F1C
2103
1D59
21A4
1F1A
205C
2082
1FD3
1FE3
1FD4
2017
1E24
1FD5
1DB7
224E
1F21
2068
1C8C
1E97
1EC5
1D2D
2043
1C79
2177
1F7C
1E4D
1FFC
1F69
1E20
2018
1E74
1FC0
20E5
20AC
1FD8
1BE7
1E61
20E9
21F1
1EB4
20F0
209C
1F74
1D22
1E57
2072
1DA2
1DED
1F64
2135
1EE1
20B5
1E1C
1F41
1D26
1D35
20EE
1F3A
1D35
1F76
1E89
1E69
211F
