1E8B
2066
1F5B
1F63
1F43
1D91
1E8B
1EF8
1D8C
1DFE
1CE8
1E03
1E02
1E63
1DA9
1C45
1D79
211B
200F
1E8B
1E9B
1FAE
1D48
1D74
2018
1FC4
1C43
1F4C
206C
1DA4
202F
1CC5
2943
2006
1F5C
1DAA
1D46
1D83
1EBD
1D24
1F3F
1F91
1CD9
1D34
201E
1C9A
1ED1
1E7C
1E94
1D9D
1F0B
1F77
1F09
1E47
202E
2034
1FE7
1D3D
1D26
2B41
1D15
1D8A
1D1C
1EF9
1FFE
1FF0
1FFA
1D4D
1F84
203D
2011
21A2
1F60
1D1E
1EF1
2066
1CF8
1F8A
1E08
1F85
1CA7
238F
1E19
1FC0
1EC0
2047
1CD7
1D03
1F91
1C17
1D54
1FBF
1DC6
1E72
1E65
1EFB
1C72
1C4C
1DE6
1ED0
1D31
1EE1
1DC6
1E2B
200D
1E66
1CDA
1EA0
296F
203E
202D
1F85
1E16
1DE6
1E9D
1E35
1C16
1EBD
1FD5
1D24
1EC2
1C8A
1EA2
1DAC
20A2
1D9E
2016
1CF6
1EC7
1E5D
1DB1
1D62
1EBF
1F27
1D37
1C57
1DD8
1CE8
205B
1E47
2058
1E77
202A
1F77
1EB9
1EBA
1E22
1FE7
1EFF
20D6
1EBA
2068
20B4
1FD9
1FA0
1D06
1DD0
201C
1EBE
1EA3
1E2F
1E39
1EDD
2020
2038
1F28
1FE1
1DA6
200A
1EA3
2165
1DAD
1D42
2000
1E15
1EAB
20A8
1EC6
2051
2019
1E0C
1D71
2006
1F08
1DF1
21C8
1CAA
1ED8
1EE0
1EAF
1F39
1E3E
1F8E
1E78
1EE8
1D9F
1D08
1E81
205B
1DB6
1C82
1E12
1DEA
1BFA
1DEB
1DF6
1ECF
1E0E
1E4F
1D69
1DF4
1F34
1EE0
1F97
2073
1D94
1E62
1F2B
1DE0
206B
2A31
1D90
1DC3
1D53
2059
1C43
1D47
1D5E
1CA4
20F6
1E06
1F75
1EB7
2047
1DCB
1CC7
1CA7
1ECB
1DD0
1E9D
1DB2
1A90
206A
2033
1FB0
212E
1DA9
1E76
1DEE
1DED
2084
1E41
1EBE
1DE6
2034
1F1A
1E1C
1E50
2005
1D6F
2012
1CF5
1D7A
2143
2090
1DA1
1C7E
1DF6
1E67
1F6B
1F50
1E17
1FE7
1F07
1CC3
1C78
2019
1EDE
1D7A
20AE
1C26
1EE0
1F76
1D07
2020
1FD4
2125
1AB0
1CEE
1E72
1D6A
1C63
1E6A
208D
1D38
1E6D
20A5
1F38
1FB9
1EE6
1D26
1D6E
1E49
2045
1EE7
1D92
1E6A
1ECC
1D8C
1EC8
1F68
204D
1C66
1FCC
1F77
1F39
1DA0
1EF5
17F8
1F8E
1E50
1F99
1ED3
211D
1FD3
1FB0
2012
1D64
1DDF
1F57
2015
1ECF
21B2
1FE2
1E77
1EF1
1DAC
1D48
1E0F
1FB8
1EAB
1EC7
1D1D
2007
1D3A
1D48
1F73
1DC7
1DD5
1D56
1E5E
1DF6
1DAB
1F87
1F9A
1DDC
1FDB
1D4E
2036
1D65
206D
1F35
2024
1FEC
1F98
1E9B
1E21
1D9A
1FAE
1F44
1A56
1E32
1F34
1DA7
1C54
1CBB
1EF2
1FF3
203A
1FF7
1ED0
1EFA
1E1C
2A06
1ED0
1F99
1F11
1D05
1D4A
1D06
2CE8
1F25
1E97
1E21
1E0D
1E36
1D74
1F65
1C78
1CAA
1EB8
2020
1EA4
1F11
1FE6
1F88
1F2F
1C7A
1E6E
1B29
2020
1E3F
1D3F
1ECF
1E42
201B
1C4F
1EE0
1ED7
2033
1EDF
203F
2013
1D6D
1D5D
1FC9
1E0E
1F95
1DD0
1F8C
212D
1D7A
1DD9
1EF3
1EE8
1E51
1E8C
1CAE
1EE9
1DEB
1F46
1FD1
1C7A
1E1B
1D86
203C
1FC3
1FB1
1CCD
20A6
1D7D
1E42
207D
1B2C
1E83
2026
1C97
1F88
1F40
1EAA
1DB5
1E16
1E11
1EC2
1D9D
1FA4
1FC8
2ABD
1C9D
1FFD
1F03
1C37
1E78
1FC7
1DAF
20C4
1FE2
1FE7
1E49
1EA1
1EDB
1D93
2051
1E56
1EDB
20A9
1F8C
1C1C
1D6A
1F9A
200D
1EAE
1BF8
1E6D
1EB3
208F
1D72
1F21
2021
2093
1CF4
1E12
1DC4
1EA3
202A
1EB4
1DA7
1F3B
1C16
1E34
1E0E
1FAB
