2398
22A7
2B6A
9E86
1760
2C90
9DEA
2CAB
9DA8
2437
A80C
2CC9
9A7D
9B58
2D3D
1D99
A6F3
2C17
201B
29F7
A547
2D81
2222
9DCC
9B1C
A016
243F
AD27
30F3
2C44
2CE2
291A
8DA4
2829
A234
2101
9A40
2E1F
2A72
A946
9B2F
1C4B
A130
A687
A1A7
26E9
9C45
2C59
1FE4
A239
9E08
2DE3
990E
9CBA
9FC5
285E
9BB8
91FC
2D45
98E4
3329
A72E
189B
998C
1D40
A176
2F55
2967
29CB
2C28
A0ED
A378
99E1
9C77
9BB5
9C63
31C5
2B21
18DF
20E6
A220
3083
2F8D
9894
9BC6
A4AE
257A
A8CF
9A01
2534
9C02
221F
A4AB
244A
A511
9453
28FA
9939
2BAD
909B
9CA7
A83D
A587
212A
2003
304C
2A40
9FFA
A111
9DB3
992E
2A44
9D11
9AE3
2C3C
93D9
24EC
9CF3
8A13
A3CD
19EB
9CBB
2CD8
A26F
2848
A5A1
3125
A155
2A39
A005
263B
A178
A120
9B53
9243
A6B4
A9EF
2CD8
2498
A8D2
25D1
2D9A
A55D
2939
245A
A408
22D8
A64E
A58A
A353
A8E8
A14F
A8CC
24BA
2A75
2832
2859
A00D
962D
2E3F
22A2
A842
981D
2B0C
2766
18CA
3034
A8D9
9851
A65
106D
817E
A58D
2EC0
A784
A958
9DC0
9B31
A548
3223
A2DE
2586
2305
9E9A
A3C7
A39F
2404
A5A1
94C3
2484
AC25
2132
2481
2A15
9D7A
93E7
9ED6
A25D
A2D1
A3FA
25B6
9B33
9C49
1040
2889
28AF
2957
2813
AB21
2982
94C1
2452
27F2
997D
16AC
26CC
2D44
A012
2E21
3122
A69E
AC58
9A59
239E
2589
955C
2CA0
A773
1D7D
20EA
3044
2A01
9D52
2657
A197
2D11
284B
A6CF
A91D
27A6
27BD
963F
9C45
2B79
2C4A
A2B0
2951
20D1
286F
2252
A4B1
2080
2979
235F
A583
31DA
9CF9
25DC
A523
2D39
297A
9D56
A7F1
A5F9
2875
26A2
25BB
9A2C
9AAC
2D65
9C7A
2636
2CFC
30CE
A0E9
AF5
AE0
23E0
248C
9CEB
A4AD
2D8F
24D4
27DA
964A
AADB
A1B7
9D4F
28ED
A41B
9369
900B
A5B9
941B
A360
2600
A081
A145
304E
2EC9
A164
2E31
A55E
A046
A630
26AE
3002
A1E9
28F3
A1AE
2D82
281E
A3CC
A6A0
9A53
3008
201A
A5CF
2EA6
2E60
A291
1E5D
AD07
A504
99D0
27F0
2970
A22F
9B05
2C31
A085
A161
2896
941B
2A97
A44D
1F1A
2DB2
A11A
9EF9
9C3A
9A1C
9694
A011
A342
A854
28B3
A563
2029
2FAB
9E6B
1CC6
9133
A95B
2ECF
2251
9B46
9D43
9EDB
A1D5
291A
9C7A
2590
2419
2A97
2311
1E5D
A159
A186
9B15
9CEE
81D5
9CFE
2F39
976E
A240
9C37
3057
9A90
25C9
185B
A05D
A368
A536
2A16
294E
2D4A
9AAD
A3AA
2F26
2CE9
2992
26A0
26DF
A12A
9E99
284B
A7D0
25CE
14A4
8D1B
A287
9E13
133A
1F7E
29D5
2E30
9E91
2BFB
25F8
26CB
A3DE
8BE1
120C
9FE0
A580
2336
2BDC
2985
A099
2B4E
28AD
8D50
2A81
2B7B
9D91
A86F
9C29
A856
244A
29BC
2B1E
A7AC
9E33
2AF5
A5D6
A0CB
A8C1
A745
944E
A3C9
2C44
A1DB
289E
A837
2EB6
AAE3
2D7F
9593
A27D
A356
9D62
20B2
30CE
9FC5
9905
200B
1BBF
1E24
9574
1D92
9EC0
96BE
12B1
20A3
9C77
9BC9
20C1
235E
94E9
9818
99F4
293E
271C
A576
2368
2DF4
28E3
8ACA
2ED3
9BCA
9965
2FE9
A2B0
26B6
A0CC
9C32
9C67
9EC3
274E
A3FB
2E52
9B0B
2AC8
9D7B
A406
2E7D
25F4
947E
28F7
A027
9D85
3097
A833
2DDE
A1E1
A51A
A498
26D8
A2D4
A5E5
9756
