1F5F
9EC4
2185
203B
2084
23DA
2276
20C1
214C
1F7C
1F97
2123
1DBE
2257
2299
2126
8194
2214
23A0
2485
20F3
22E5
20AF
249E
2105
2106
1DD5
1D4D
1E9D
216B
255B
2100
243E
2039
20E5
237B
2083
224A
224E
2121
215D
20F8
21A5
1FBF
224E
205B
20AD
2159
2063
20F2
205B
203D
20CD
21EF
2002
203C
229D
A82A
226F
210C
2345
2171
1FD7
232B
226E
21D3
20C5
21CF
1E15
21CE
1FFD
22CB
20F0
1FF3
21FC
2237
21CE
22CC
1FA8
2089
20E3
1F38
20C3
2408
22FF
241F
21D5
246B
218E
22A2
20C7
2135
2227
20EB
2230
2186
1F2E
21F6
2183
2000
2401
2305
1F37
2195
227D
169
23C5
1D1D
214B
1E9B
211D
2089
1E4C
A0C0
20B8
2028
209F
218C
22D0
9D5B
21D7
21F6
1EC8
AAD
20E2
1E9F
220F
2154
