20AA
20E2
1F03
1E83
21DA
2148
1F4D
1EDE
1E1F
207D
1FC7
20E7
2031
20DA
1FF9
2058
1E59
2046
2039
1EE8
216D
2153
20C1
1F90
1EED
1F76
2044
1F25
1F95
1CD0
1EB3
2279
201D
1ECA
2062
2074
2239
1FC6
20B9
2072
1DF7
2017
204C
1FB7
1EEF
211A
1F7E
2058
1EF6
1F72
20E8
2345
20B6
202A
1F69
2015
2115
214B
2171
2061
1ECA
215F
1F2E
20DE
1F79
1E7F
205E
206A
2226
204E
1FEF
2098
1FB1
2029
20BF
1B52
21E4
21BE
1F8B
1FD3
2138
2073
1FD2
1E03
2006
204D
1DB1
2055
1EBF
1F02
1CC0
1E04
2044
2020
2018
217C
1F06
1DF0
20ED
21CB
204E
206B
207E
20B9
1F05
209C
2076
1D9A
1DF9
1D72
1E0D
203F
204A
2054
20A1
2231
205F
209F
210A
1EDC
20CB
2180
21A2
20E8
2113
2206
1FB2
201A
216B
1F44
2153
20AD
2186
20A6
1F73
1DBD
20E9
2127
2073
205B
2037
20D6
1F9D
2047
2099
1FFF
1DB2
1C8A
1F96
20DC
2007
2192
1E27
21F1
1FEE
2051
1F86
20E3
1EFE
20C2
1D49
2198
2028
202F
1EF5
1EC7
1E0C
2098
20C2
1E32
21B6
1D78
2037
1E5B
201C
1FE7
1CAA
1F2B
1E90
1C92
206E
20FD
1E8D
2064
2050
1F6C
1E8D
22AE
1C52
1E01
1F00
1ED9
1E50
200E
1CDE
1D0C
1DCB
1E20
2105
1E29
204E
1F8C
2091
1F6C
1F2A
2049
1ED3
24B5
20D3
202B
20E7
1D80
1FDB
2239
1D6B
1EF3
2175
1D72
1E0C
213A
2026
2084
2127
1F70
1FAC
1F88
20B7
20F1
1FC3
2134
1FC9
201B
229F
1D77
201E
20DC
21A1
20FD
1F7C
1C7E
2001
205A
20EC
1F96
1E95
1B9F
20EB
2096
2219
22AD
2035
2061
1E1C
210D
21B7
2027
