26D3
2235
259C
24F8
210B
245D
249E
2588
2588
2209
255D
25E5
259E
214C
2198
2767
22EC
21AB
2102
25A3
24A7
2790
26B9
24DB
2128
2695
2017
216E
27B9
24D5
2360
247E
2420
21B2
24C2
25C2
2800
2451
24EF
1F61
2534
24BB
25EE
2BC3
26F9
2399
14C8
2439
2141
26AB
271F
2422
2879
2434
269B
258A
2029
2868
213B
25E1
2507
229D
26DC
23AF
