20E8
22C1
2245
24C6
238F
2413
2491
232B
2332
230F
2127
2351
2286
2313
20DA
234E
2334
2389
241C
2253
21D3
236B
21CF
246E
22DE
23B0
2389
237D
240A
2002
2283
22FF
236C
2526
23C0
22FE
238B
23A5
220D
2266
8011
21B4
2284
21C0
21B8
2273
2341
222A
24C5
23B0
2398
243E
230A
2327
2246
217E
24E1
21FC
220E
216C
2306
212E
23F6
2142
2435
20A5
2247
22C4
2454
24DB
244F
202B
23A3
220C
22BB
2282
227F
2306
21D8
21CC
241A
237F
2340
231A
2371
2254
240F
223A
21F4
23CA
2225
210F
A3D3
2437
2352
2311
219C
21C2
24B5
242A
22DB
232E
2169
22CD
2198
233E
225B
2244
2277
22BB
251A
23A6
21EF
2246
2413
20E1
24D8
237D
2219
210E
2440
2329
8
2421
22D9
244E
22B2
2415
21CB
22A8
241B
23F6
234D
20C1
224B
233B
22DF
2449
23FE
2129
2401
2125
228C
234F
225E
2443
23E5
23A0
2165
20FC
2295
2211
2092
22A6
240A
20D1
2259
2151
2349
231F
2455
21DF
207F
2272
24FF
240C
243E
2104
2422
249E
222F
22AF
218B
22BE
24A5
2352
239D
23DE
229F
2118
23D8
2195
246E
244E
2435
245A
236F
218E
23DD
249B
2320
2412
23DF
22DA
223E
22E9
2228
22A7
2403
23D2
2374
2450
23D7
24AB
2097
234A
2458
240D
23AD
22B4
2171
21B4
24D3
2445
243B
2430
23BD
20AE
21A7
22E6
2262
226E
2182
22EC
232D
222A
22F3
209E
2120
2135
2175
2387
2207
21AD
230D
2333
2195
20EE
2101
2316
2274
22FC
2388
234A
219E
2414
215D
23B1
2386
2101
203C
23AB
22DF
2344
230D
219B
22BA
20B1
22EF
24CD
206B
23F8
2205
246F
2258
22E1
2281
2460
2321
22C9
2378
235C
2138
22BE
22BB
2250
22E8
2314
2103
23F5
239E
2347
22CF
21A4
22E7
21EC
2499
220F
22F3
23C8
2392
22DE
21E4
24AB
2158
2276
21F6
23B1
2348
2467
224E
2432
215A
218C
244A
22F5
2186
235B
236C
22CF
235E
232F
215D
2288
22C4
24BF
232E
21FC
24A5
20A1
2334
21B8
22CC
2154
22EF
248D
2104
240C
216E
24D1
24B0
239C
243A
2394
23F7
20EC
233C
2268
2344
2329
216E
23AD
23FC
2252
206D
20A9
21C4
215A
232A
2181
237A
2315
2210
20E1
231C
223E
2159
2489
2413
22BD
2199
2100
22AA
22DF
2185
2155
2469
23D7
21D3
2300
22F6
23E9
2253
248F
21EE
220A
2126
20DD
20DB
23BA
21F8
233F
239F
23C4
206A
222E
2160
2435
2129
20AE
22B5
2494
2388
23FF
23C4
238B
2269
2245
2312
2314
2456
209D
217F
2451
22F8
231D
22E6
243A
236F
21FB
22B0
23F7
22BA
2293
2495
22DB
20AF
2452
226D
2206
2226
23B6
237D
22C5
2590
222B
2420
242F
211C
225F
233A
2237
2294
233F
2319
2288
229E
21B9
2268
233E
2204
21C1
241D
241F
232E
2351
234D
23C5
2452
245F
2367
2107
22CF
226E
228B
249C
2441
23EB
23F5
2299
22AD
240E
2245
22F9
2141
216A
22AE
2354
221D
22D9
2402
22EB
2155
2327
2380
2269
2168
2269
2103
2153
2266
21E9
2262
24E9
2426
2170
2639
2447
232F
2220
228C
2204
23C0
221A
2292
2155
2218
2317
2487
2149
2343
22DE
2283
2278
209E
22A2
20F8
2374
21A9
218C
22E4
23CB
