2322
27FA
302F
27BB
253F
2001
2005
384B
39F8
286B
1CD7
2A8D
1C4E
E51E
B0EB
246B
2875
1E76
24F4
638D
23D2
368F
5A77
1D48
2CC0
674B
3E29
1CEA
25A9
A696
24C7
248C
A21F
24E4
2B29
4951
ACB1
31B3
239B
2137
261A
27BD
1CEB
3AA2
37FA
20C2
251F
23A3
29D8
62E8
6306
5E2E
654D
258B
32EE
279D
4BFF
285B
25E7
3896
521D
DD90
2CDA
2018
