357B
A9AF
AD1D
A659
A9B8
B9C3
B71B
B263
B8EF
A8B3
2D48
AE17
9B76
2C9B
2C06
AC4E
B585
2429
AB6F
B1A3
AB9C
2CD5
3110
B55C
AE0C
AF02
B142
2D8D
B0B9
AC53
B158
B23E
30C9
2DE3
2EE4
B882
A427
AF96
30FC
B41D
B46D
A4F7
1F3E
B188
3018
2736
32F5
B134
B4BF
B61F
309F
35A8
3544
2F4D
B521
9E9F
32E1
B0A9
31C5
AF84
9E58
B1BE
B923
26F6
B0BC
B89F
31DC
B52B
33F5
9D48
A8F3
B545
B011
B0C3
306F
2B16
340F
3250
948D
B4ED
A128
2AD4
25FC
2D57
3352
B3C0
AE53
2C6A
359D
B25C
1E7C
A9BC
37C7
AE93
2C62
9DF3
30ED
2ADC
AE7A
31DA
2B20
A097
17AB
B4DA
2244
B428
3073
B8F2
B5EF
B2CB
B5EB
AC3C
3102
B156
A024
308D
2E0C
3182
BA23
B910
A9ED
29DB
A618
2F43
ADDF
ABCC
B523
2DA9
2D90
B567
29DE
AC46
2D69
304D
B676
B8C3
2F3B
B0B2
AF16
B0E3
B548
B9C8
2C15
B66D
B114
B40F
27F7
2FB6
30FB
B72A
2C2D
2707
B290
A74D
B5D7
AC20
AA40
1EF1
3136
B107
2F07
3176
2E8D
3357
A1CA
2912
30AA
336D
AEFA
B0E6
2D4D
2D9E
2D57
2A22
AD1B
31DB
3823
A466
B6CD
A61A
B02A
B303
B69D
2869
ADFE
3489
A630
3470
B77C
2C08
A11E
B062
B1BA
A832
2D99
9CC3
25F0
9489
AB18
A865
B6A6
A152
A7E4
B07C
B52F
35A7
AE4B
ADFF
288F
266A
2DE9
2F80
31E6
264A
B232
A1CD
3377
B7BF
33CA
A70D
9F0D
A870
ACCD
B14B
37B3
9DB6
25F9
A9EC
B88A
AE54
B33C
B445
B104
ADE0
2E70
A94D
28EC
3665
240E
B54E
2DFE
AE06
32D5
A980
2D1A
2E87
2FC9
A4C0
B777
2C4F
2EE9
29A3
B137
B209
AAE5
A87A
1E44
B856
B322
A4DF
34D4
B2AC
31AC
30F2
B345
2C23
3012
2956
AA7E
B130
B097
2DCA
2933
2DE3
3058
A9B8
B0EC
B46F
ABFF
2D75
AB55
30AA
2C10
2F19
B143
B056
2CE6
AC58
29EC
AB7F
B2C6
B671
B6C3
B882
297E
B0FC
B169
ABCE
2801
B0BA
249A
AF0F
266D
29AF
AC18
ACF5
A74F
2CFD
31E6
3002
B120
AE64
A6A1
325B
1F16
B5CE
B022
B42D
28B8
ADD4
A93D
B0BD
2D51
2A4C
ADBD
ADF8
B421
B804
B725
B50A
A9DB
B19A
ADCF
B008
B24C
3085
AF27
AC4B
1E42
2A48
B4B3
2A6D
2E79
B556
B581
24D9
B0FD
B508
AFB1
94E5
AA18
2BD5
B3CA
2A2D
B14C
AE64
B4A2
2174
B00A
A8D6
B06D
2FBB
ADC7
B4D5
31FD
B824
B49E
B30F
2A05
2E3C
B2F3
AD0D
2F73
2D6E
2FD3
B88B
B6C1
2D72
A94F
B33F
B6B5
B022
AF29
33E0
B25F
B8C5
3346
B00B
B16A
B087
B1FA
301A
AC98
31A0
281C
AE35
A4E5
A50C
B23A
B515
AC49
B17E
A829
B21E
AB01
ABDB
25C6
24DB
278B
B2DB
2CB9
A873
B467
257A
2711
A0B3
B772
B7A5
34D0
2D33
9FC4
AC9A
AE23
ACA0
B7E2
AF69
2394
A8A8
AC68
B191
A95B
2A7E
A7C0
264B
ADEC
3212
B337
98E3
31F6
A888
B391
AC1B
315B
B8E1
304C
2949
B396
2EB6
29DF
3025
32BE
2EE4
B4CF
B5F6
2CE0
3208
31A8
B742
B0EB
B90B
2D97
B010
AFB4
B155
1F0D
B432
B31C
A5FB
BAF6
ADB7
303E
B8D9
277D
2CB3
225F
B3FE
AC91
AAEB
B259
B748
2DC0
9E27
A783
34EC
288D
B407
B307
2BC8
AE73
2C98
3150
2227
A7F9
B20C
AEF2
B378
3165
B5D3
30A5
B150
B08A
A9E5
AB17
B401
2110
34AA
AD79
B434
B05A
308F
B0CF
2FC6
