1FE3
1FBA
1EA7
201C
1DBD
2013
1D4A
2020
1D6B
1CFE
1D8B
1D75
1DFC
1F08
1FD0
1D89
2045
1D51
1F55
1F79
1DD4
1F75
1CCE
1FDB
1FE9
21E2
1EEE
1EAC
1EC2
1DDB
20FD
1FBF
1E86
215D
1B55
1D19
1CB1
1F66
1CAE
23C2
2021
1CA7
1E57
1E0E
1D7D
1F6C
2073
2047
2096
1E76
2029
1F41
1DD0
1DD7
1E37
1D57
1FC0
1F86
1F2F
1EBC
1D05
1D77
1B76
1EA2
1D60
1EEE
1D99
1F5F
1D75
1E90
1E17
1F10
1D68
1EE8
1FE7
1F51
1FF7
1AAF
1D90
209F
2100
1E5E
1CEA
1F21
1E3C
1B40
1D77
1FC8
1F1E
1ECA
1F2A
1E0C
1D15
1EBC
1D5E
1D46
19C1
1F65
1E72
1E8D
201C
1F87
1EC5
1E67
1E4B
1BF1
2202
1FE0
1D43
1CD7
1E61
1F8F
1C59
1DEA
1F84
20C4
1F7A
1EF9
1E96
1DC7
2013
1DAF
20F0
1C14
1DD2
1F70
1E10
1F89
1D82
1E5F
1C7A
1D14
1FD5
2047
1D68
229C
2056
1DB2
1F79
1CAC
1ECA
1F9D
1ECC
1CEA
1B06
20FB
1E33
1C16
1F7D
1DD2
1E33
1F18
1963
1DD3
1DBC
1DB8
1CC1
1F76
1F43
1E7A
1F2B
1EDC
1D4D
1C73
1DA8
1DE4
1D59
1EA0
20E0
2068
1D71
1E6A
1E28
1F11
1D80
1E34
1FC0
1E9B
2010
1E8E
1C9B
1D8B
1E93
1DC0
1C6C
1EAA
1D50
1E77
1DD1
1DF0
1D64
1C80
2094
1DCA
2011
1DC9
1DFD
1EAF
2013
1DB0
1C69
1E8D
1C3A
1F07
1E83
1FC5
1D65
1F68
2280
1D3C
2858
1E38
200E
1DEC
1DE9
1EF0
1C90
2010
1C6F
205C
22FD
1EE0
1E4F
1D46
1F07
2007
1F77
1DD0
1F9D
1FEA
1E55
1F6F
21B2
1F61
1D56
1D68
1E69
2106
1D77
1D9A
2064
1E8B
2097
1E27
1F24
1D7D
1F4E
22D3
1D6B
1EBE
1FB6
1E05
20D2
1D8B
1D51
1DAE
1B38
1ED5
1F67
1EE3
1D7D
1DA4
1D4F
1DEF
1F48
2099
1D73
1EFA
1B8C
1E3B
1CB2
20F3
1FCE
1C51
1E91
1EF7
1F4F
1F3A
1D6F
1F09
1E76
1D8D
1C2D
1D96
1934
1E29
2013
1E37
206F
1DFB
1C89
201D
1B76
1F75
1DF0
2002
1EBC
1F24
1E15
1F0F
1F73
20ED
1F84
1BC0
1F06
1F69
1FAA
1FCF
1E90
1F22
1DF2
2022
1F00
201A
1EC6
1EC9
1D4E
1F67
1CF8
1C13
1FC3
1EA3
1E7B
2143
1DC4
1D68
1DF4
1CB8
1DE4
1D36
1FBD
1EDC
1ECE
1E2A
1BAE
1D93
2069
1C95
1E8A
2030
1C6E
1D2F
1E8C
1EDE
1CF8
191A
1DB1
1D36
1B0F
1E85
1C2A
1C47
1EE6
2091
2061
1EE9
1E6A
1FAE
1CE5
1E91
1B4B
1F11
2062
1FDE
1D0D
1E5B
1E45
1D6C
2068
1E87
199C
1CFC
1CA3
1F5C
1F55
1E12
2026
1F6D
203C
1A0A
1D7F
1EE1
2009
1D54
1E5F
1C83
1EFE
1C2B
1F28
1EED
1F6D
1C96
1F36
1FBE
2177
2045
1E69
20FE
1E1A
208D
1973
1EF2
214F
1D88
1F96
2066
20B3
1EC4
1E37
1CEC
1C24
1F24
1C8E
205F
1CEA
1E50
1F2A
1D93
1D7C
1F27
1FDD
2116
1CDB
1DDF
1D96
1F6C
1FCE
1B58
1E11
1ED3
2038
1F5E
1F47
1DB7
1D50
1E86
1EFE
1E24
2051
1DB7
1CA3
1DE0
1D49
1F7F
1E36
2044
1E7B
1F15
1E90
1F46
1F4E
2000
1E5A
1D13
1EF9
1F47
1F1B
1EDF
1E3B
1E8E
2076
1EE0
1E77
1FBD
1E23
1C56
2098
211B
1F64
1F11
1D0C
1E8A
1DD0
1E0E
1E62
2170
2084
1D5D
1D4E
1E44
1DA5
1E65
1E31
1C05
1FEC
1EC0
1F99
1FE5
1F09
200A
201E
1E41
1E35
1C66
1AE5
1DAE
1EEA
1A08
1E6C
1B7A
1FD4
204D
1F6B
1CE1
1D41
1C2B
2037
1E50
1EDD
2006
1DE9
1DDB
