35EA
344D
374E
2F2A
3171
313D
3765
34C5
3570
3759
36CA
3034
31D6
2D09
31EF
3051
3173
3580
35BB
1F45
316F
34B0
2D04
37BB
3565
3255
3440
3453
3022
34FF
31AB
2FF1
30C2
3433
340E
A88C
31FC
3269
3156
96CE
32D1
34D2
313B
B1B1
3657
3570
3252
3077
A744
34D1
28A9
35AD
33D8
341F
346A
34E2
3007
312D
3059
3453
3049
3450
3466
35A3
34EC
30B7
2444
34CB
32E6
3465
3227
33A5
33AB
2CEB
356D
2F8D
3502
3A7C
356C
32CC
36F9
35A4
32D1
2166
346C
3029
3525
32BA
31F5
3350
308F
3362
34A5
31C3
34E3
3388
34C7
3263
343A
3390
328C
3409
35DE
304C
35FC
B460
355E
3234
307C
3439
3020
3533
30A7
31EE
3587
3453
31BF
332C
3283
3434
3477
3658
31E7
362D
3701
34D5
360C
36B4
316F
341A
32E2
3486
3001
3537
317C
3683
33C9
35B1
32C4
348B
3419
2F46
346A
35FB
35DC
33FD
3214
2CD1
30D9
3414
350E
33D4
2D10
2D4B
2FF6
3738
2E21
3080
3411
320B
3800
2825
350B
2CD3
34D9
2B58
31AB
31C2
3904
31B4
2C73
32D7
354D
34FC
356B
3320
3278
3505
35AC
3005
2ADB
2F78
3364
3525
2D3B
2E7C
322A
3332
337C
3178
36FF
349C
3489
333C
3167
31D7
34ED
2E2B
34E5
35D1
32C6
3151
328E
3049
3088
30C7
3277
3379
3266
38B4
33B8
3118
AAEF
341E
3417
334E
33C5
32A9
30BB
B99C
30C9
3039
3406
36FE
320B
3612
341B
3798
2CF4
3802
34AE
3170
379D
3434
3474
3252
3420
315B
B44A
30B7
3180
30AE
3417
322C
34FE
311F
3313
B2C2
2E18
304A
2EED
3216
302A
329F
328B
B10B
27DD
2BB5
A522
278E
3075
35F6
33BD
316D
3233
351D
2BB4
2D8E
2874
3559
3239
3679
31EF
3475
3411
3791
3385
271B
3366
3307
3141
340D
3419
3484
31F8
341A
34AA
32EB
31B0
34B7
2E2F
3447
389C
3105
302F
3678
3052
3517
32C8
1C11
2F46
3382
31A5
349C
3563
2E6B
348B
2B4B
3062
30BC
3413
3222
315E
2E84
31DF
304A
2A23
9CC6
3169
33DC
331D
3420
1288
2926
32E6
3464
33A2
32BC
3023
32A8
3266
34F7
2B44
34F6
351A
2F11
2BAC
33C1
2DCD
3253
329C
3511
317C
32A0
369C
340B
3435
33D4
3347
320C
28CC
3149
348E
339E
2EBA
34E2
2857
3125
35BC
3326
2461
32DF
3014
B1B8
3333
31C3
34EE
319D
3058
349E
2C27
34DA
340B
3080
352F
341E
2E06
323B
32EB
374A
30D9
A995
324C
3229
3345
3171
3438
33AE
35BD
3695
348F
321C
33D4
2D8C
3479
2D79
3420
3656
341A
3136
3062
3684
31DA
309D
3381
2961
35CC
34F6
32FC
3366
2EC1
32BC
2BDC
2C7A
3798
3464
35A6
301B
30E5
301A
A99A
3210
3085
3125
36A7
3482
36B8
34F8
3381
306B
3106
33B6
3412
3417
2EC8
3412
2F77
31D6
25C9
ADAA
34A9
369C
9C0E
3508
3404
B4F5
3167
300C
3096
3646
3454
30C4
3645
32FA
33F1
3503
33A3
3448
3361
3213
3536
2CC1
3649
3471
321B
3311
2EB3
2225
36DA
2FF4
30FD
3723
3710
3756
34E7
316B
2592
34A8
349D
3699
2F91
3726
3862
3403
AC2B
A92A
AC5D
3336
33F1
344C
3560
3234
33C0
35F2
348B
A41B
331B
2935
34A3
35A6
342E
3021
33F6
35A3
30EC
37F5
32F0
34A5
3602
3604
333A
2F0C
