3040
31AB
2C0D
3337
3839
2FCF
348D
3472
354A
34BB
3263
2D17
1B88
3023
34A8
356D
38ED
2F5B
341A
3384
2E40
B0C6
3763
3296
A9C4
3679
2C42
35C7
AD60
3757
31D2
ADC0
28A2
3358
322F
3396
2ED5
3350
35FE
331E
32C1
32B1
2B7E
2F51
2E31
323F
3404
339B
AA88
276F
3495
25D6
29DD
A766
36D1
AFE8
2C35
2EFA
2795
31EC
3229
274E
274C
2FDB
30C5
3196
327F
A1AE
2DD5
2FB7
3607
3770
32A5
2673
3414
30DE
2EBF
3133
3144
2D6F
3522
31FD
2AF1
3426
2E2E
33E3
3389
28FD
3063
30FC
367D
319F
3423
33AE
32E7
3122
24ED
F28
2C2E
2735
2CA0
317A
2F7D
33C6
2868
A42E
355D
2E36
2944
31C0
3499
A946
323A
30C4
2C78
B0C3
2D4A
AE8B
2A72
2F11
30AD
3610
B76A
334F
33D4
15AF
34D5
266F
2D9F
3159
2C3D
A7CF
30C1
336E
34E4
2B3C
383E
3100
A4F9
3044
20B0
2A36
AD73
3481
2371
2BFD
2841
3AAE
31C3
2F06
3528
33DA
3223
2CF9
A207
2ED1
339B
36E2
34DC
2E7A
269C
3495
2173
2E1F
3231
2F0F
2E2F
ACFF
349F
30B5
B131
29A8
2C9E
36A6
2583
30C7
3319
3187
298C
355B
AB38
3071
2FDB
A269
342A
3612
32DE
35DE
2487
A72D
2FDE
3435
2CD4
A963
309C
2F7A
358A
2A72
34BD
B374
3402
31B4
2E54
3406
AAA2
389E
28F9
B849
31F0
9DBC
2771
30C9
A2CF
B192
3452
2EBF
3354
3616
2A7E
3511
2F2B
344C
2F63
3439
2D14
33E5
2E2B
30F0
2CF2
ABF6
30EA
B555
3620
A76F
34E7
330C
29F7
35B2
3555
36C7
2F43
3124
2806
3449
3513
2A23
318C
A46F
326C
1098
35F6
319C
A809
9D86
2B3D
32A5
