2D93
249C
34E1
3246
34B8
ACB9
29AB
2E78
3C80
3280
3731
3174
38E7
89EC
B050
32FC
8004
3742
22D0
B61F
AD98
342C
3741
B4ED
249F
33CA
3912
25CA
32F8
AA29
365A
317A
3056
365A
3293
B454
34D7
330C
368C
29BA
A1D5
A61C
2CF1
2CBC
A20B
3704
38CA
3805
2A60
AE05
B0EF
344F
2B45
2F2B
359F
30CD
34F9
84D0
A3CA
AA2C
AC7D
376C
AB8F
2C8C
3A01
BC3B
2E07
37C0
A824
A93C
3BA7
B41F
3489
3651
AE72
3400
B224
AF0B
30B9
B156
AD9E
3267
3429
2CC0
32E3
AFBC
3436
B68A
35F6
3873
AFB0
37A7
3834
2127
2C5F
2B80
2F74
B01A
36B0
3114
B4E2
B35E
9360
3195
AFD1
8001
34E8
334F
B0B4
36F8
A61A
34CB
366E
3302
3539
30DF
325A
3255
B35B
812E
AD7D
B651
347D
8006
9D62
30A7
A370
A929
