3657
30F9
3515
3660
B3BB
346F
2F97
3373
2C56
33BA
ADD7
3424
30CD
B41D
273A
B1A4
35F7
34D3
33DC
B659
2CF9
3188
3720
228B
34F4
26FD
3400
B307
2DAD
AABC
34A5
2D4D
3643
2FE4
32B6
2E9F
36B8
34E8
3384
309F
3154
B8C4
358E
348B
3220
2C66
35CE
2B8A
3909
2FBC
3617
34F3
33D1
BACA
336C
335C
3222
AD6A
368C
B9FF
3525
34B8
3817
AD06
358B
30CD
26EB
289E
342B
AE55
2FE1
3372
3113
2E76
324C
33F9
2743
3841
337C
3382
3737
2D3B
2EA6
32EA
2CC3
2F1A
331B
2E11
2318
3060
31F3
354B
3672
34E3
343A
A80C
2F44
25E8
3767
29B9
3439
31E7
38A6
35A5
3079
331D
2921
A91B
32D1
32D8
A1E7
3607
3490
3228
35F5
3189
3607
35F4
A428
3492
338F
340A
B3D9
382B
3491
9725
A140
3247
34B6
2D40
B73A
2E68
35A6
34C4
30E2
3228
35A9
2AB0
303A
34CB
31BC
39A0
2B30
3568
3202
3634
2D16
32DA
3730
332B
35A4
2ED8
3498
3455
B54B
BA64
2DD2
B8D1
3529
27DD
2EA3
2E46
2AA5
303F
31AA
3418
348A
3720
ADF3
3919
2C40
377D
3577
36CB
381B
30D3
9C9C
B5BE
ACCE
2225
374B
31D0
31B5
30BB
B415
2C86
A3C4
2AAB
3817
31A8
2E54
2C02
B070
3781
3411
31B2
AEEC
3622
3594
A44D
2EDC
3424
33BD
B85D
310C
2A52
3378
3887
3351
33DA
3520
34B4
35EA
3444
3146
3430
A4B0
2EDD
34F1
3203
358D
300D
2EB8
B6D4
3203
35A9
2D81
3650
2E24
3472
333C
A013
3005
290C
2FA4
3485
3481
3381
2898
2DD3
3023
3049
3185
3467
32AF
3111
AFDB
322F
33E8
306F
2ADB
3200
36D3
AFD2
28EF
C8C
