B5A6
AC38
AEAE
2DCC
34FF
B456
2CEE
B3DB
B7E3
B0E4
2926
2871
B603
2A6F
B51F
B495
AED5
B5EB
373E
B082
B6A5
B458
AB5A
2D84
B3C5
B52D
B570
A6A1
A54D
B885
B2A9
B4BC
B3AA
3295
B615
ADDE
AB27
B241
B666
2D9C
8000
B7E6
B271
B7C2
2485
181C
2E4C
B5D4
3499
B60A
B53E
A8F6
2563
B8A7
B278
B02D
2E83
B6EB
B58F
AEEE
B15A
B556
B0BF
B63C
B18E
B526
B4CC
ACCB
A565
3005
26FC
39FD
AE2A
B97B
AF5D
B74F
B626
2C55
B36A
B429
326C
AFAE
2ECD
B441
33AC
B417
A03A
B697
A2A3
AD3B
A780
B6C2
B7C7
B1F8
BA30
AF78
B0C5
B65D
B305
35B5
1B95
B66D
B596
B4C8
B111
31A0
AF6C
B5E3
B48C
2CC6
B41F
A8DF
B823
B749
2CA2
B6AE
29D5
B68D
B570
B4B2
239D
2A42
8000
B85E
93BB
B3EF
9466
3554
B46A
AEB0
B175
38AB
B7BF
B459
B648
B782
AE90
B046
28E5
B7B1
35AC
B5DA
2CD1
ACF6
B80B
284F
AD69
39A3
B634
B0D6
B0D1
AF8C
B8AE
32AD
B911
B813
B658
B59E
A9F7
ACDF
B8DB
B37F
B843
B016
303A
33D6
B1A7
B7AC
B631
37B1
AD7D
B000
B558
B49A
3195
B7C3
B360
B743
B1FA
B827
B464
B802
3531
1DFE
34C0
B5A1
AFD4
B8BF
2187
241E
B4D5
3269
28FA
B283
B219
386A
B3BA
AC55
35C5
ABD6
AADB
2C79
A8AC
B47B
B5CB
AF4B
AAC5
AD5D
AD0F
B773
B83E
B7C3
B81A
B069
2E64
AC2C
B18C
B71E
B120
B754
2FC6
B550
B51F
30CB
A705
B4D6
B4E1
B715
B3D6
B7B6
A5E7
B836
B81A
B4A3
B2FE
B177
AF81
B834
B71F
B5DF
AF39
B610
308D
AC9F
B7E1
B14D
3132
3009
A702
B2A9
B521
290A
2F55
B75A
B295
B476
B3A6
B8B8
A9C9
B2C1
B44B
B1B6
B1EF
3094
ADA7
B7AC
AF95
31F4
B542
302A
AFEA
2A47
B0D3
B6B6
B231
AE91
2892
B644
B539
AEE7
B74E
B4C9
B487
B0F8
B5AC
B14E
B658
2F14
B39B
A1FE
28EA
AF23
B505
B7EB
B322
B565
B223
B01C
9616
3792
B104
B337
B897
ACA1
B0BF
B2BE
AE05
B685
B3D1
2989
20C6
B2C0
B148
B619
2C6A
3596
AF70
B511
3220
B4CE
B265
3644
9CD9
B882
B7EF
3462
B616
B6E4
B51A
A91D
2FCC
B0B6
2C09
B364
AF0C
B777
B15F
2277
A9B5
B2B7
B6F7
2C7E
B04B
2D08
B339
B84B
B5A4
B80C
B57E
B3A8
2883
3342
B139
B424
2CAC
B593
29EF
B8BE
AF07
B5DF
B0F4
B6A9
3292
B057
B760
B0B1
A34F
B464
20BF
B69E
B36B
B534
2ED8
347F
2684
B20E
B4A2
B76E
B6A5
AA36
B564
B20E
B4B6
31C6
B754
B45D
B53C
241B
B33D
B81D
B55C
19EC
3094
3765
A996
B19A
B5B1
B85F
B281
AF04
B376
B129
B781
2FC8
33D6
1E6C
B417
2AB7
2FDE
AC66
AF32
B548
B516
31D1
2E60
B289
322F
1D9A
B765
B5DD
A4A3
1D4B
B47C
B0CB
226D
B4B8
B3E7
AE4F
B034
B1BE
3283
B4B8
B810
B061
B02A
AE14
A3AA
B4F2
A822
B413
B040
2915
A21F
B86C
ABDE
B187
AD40
2697
AF8C
35FF
B401
B6BF
B4C2
B439
23C8
3937
A849
36BE
AA07
AF25
B7CA
B5DC
B4F6
B41E
B5A3
B14B
B037
B48D
B6E0
B1E5
B0B5
B676
B1E2
B7BE
B3A5
AADA
B185
B3E3
B77A
B413
329F
B538
B475
A00F
B79F
B437
329D
B6FA
AF30
ADAB
AE43
B476
B176
B520
AC03
9AF3
B55B
B478
2371
B73A
3400
306B
B202
B673
B72C
B84D
B655
3244
B4FE
B794
B70A
37C1
