1E29
1D27
1E67
1E82
1CD5
216D
203A
1CED
1F09
1E09
1E24
1DC9
1EE5
21BD
1B70
1EFF
1C90
1B40
1D4A
1D4F
1D65
1F77
1F39
1E37
1E55
1EE8
1FDC
1D5D
1D41
1E9E
1C32
1DAF
1D82
1CB6
1C09
20BC
1D7A
1CD3
1C23
200A
217C
1E78
1E18
20E2
1C70
1CEF
1D28
1CD2
1EDC
1C2D
1EB9
1E71
1EAB
1C97
1F53
1EAE
1DBB
1D2B
1DB5
1E61
205F
1D41
1EAF
1BCA
1872
1DC8
1D5D
1DC4
1E5D
1B99
1CBE
1F62
20A1
1D87
1E01
1F0F
1981
1DC5
1EA5
1CFF
1DC2
1C19
1C24
1F38
1DCB
2175
1E57
1DCD
1DAF
1D81
1D68
1D51
1CDD
1D85
1DB2
1D8C
1DE1
1CFD
1DF7
1E0F
1DFF
1D68
1EF3
1D77
1E39
25A8
20F4
1E41
1F07
2023
1D61
1D02
19B6
1FA8
1CA6
1E72
1DE5
1D1B
212B
1E51
1D36
1E07
1E6D
1DD1
1F6F
1E1A
1FCC
1DA2
1DD5
1D45
1DF2
1EBF
1DD8
1C29
204F
20B7
1ECF
1F8E
1F0F
1CC8
1FB7
2111
1E62
1EF9
1EDA
1F55
1A92
1F9D
1DD2
208E
1BE1
1CD2
20C6
1C25
2047
1EF3
1D8C
1AFD
1E05
1E41
1DEA
1BFB
1E91
1D24
1F10
1EBC
204A
1D85
1DDF
1CFF
1D6D
1C9A
1D5B
1E76
1D80
1D0C
2044
2013
2117
1D35
1CC0
1E59
1E5D
1D49
1C7B
1AEF
1D05
1F47
2027
1E1A
1DF0
1FC6
1FD2
1FA4
1E89
1BA8
1DE0
1DB2
1E5D
1E4C
1DBD
1A87
1D47
1E0E
1E3D
1DC6
1C2A
1CCE
1D50
1ECC
1D46
1D24
1CD3
1D29
1D18
1C48
1D2C
1FE1
1D82
1DAD
1D77
1CEF
1DB4
2086
206C
1DA4
1D7C
1DB6
1E79
2001
1DF5
2042
1DCD
1E09
1E62
1D19
1D2F
1EF4
202A
1E93
1E23
1D5F
1C06
1C42
1EDE
1C99
1EE7
1EBD
1E39
1C92
1E4F
1E84
1CA4
1FB5
1E66
1EFC
1ECA
1EE6
2087
1DE0
1C3A
1E4F
1FA9
1D8C
1DC9
1B7F
1CA0
1E14
1E2E
1D14
1CF3
1D98
1E7E
1CEA
1E2C
1E43
1E57
1D2F
1EA1
1E13
1D80
1D33
1F47
1CA0
1B18
2069
1EE8
1ED5
204C
1E44
20B3
1E25
1EC3
1E1C
1D43
1EE6
1FB1
1CCA
1E3D
1FE7
1E5B
1EA8
1DEE
1AA7
1B6A
1DED
1DA9
1BB3
1ED2
1E8D
1DB9
1F43
1E45
1D56
1F92
1D2E
1EFD
1DB0
1F1E
1E39
1CCE
1E64
1F42
1CE5
1FD9
1E61
1DD4
1EEF
1D4D
1D24
1C1A
1E53
1F3B
1CB0
1F16
1D54
1DBE
1DCE
1E64
1D17
1DB1
1B88
1C16
201D
1F2A
1EB3
1EBB
1DC3
1DA6
1E05
1D08
1E62
1F96
1E2A
1CCE
1DC5
1C86
1E30
1E67
1D76
1DBD
1EC8
1E63
2097
1E0F
2098
2014
202F
1EB0
1D0D
1EC5
1DAC
1CF4
1F01
1E1A
2059
1CEA
1DF3
1E49
1FEA
1F04
1CF2
1CC6
1EE5
2083
20F8
1CFF
1DC2
1EF3
1F84
2064
1EA3
1EED
1D56
1D88
201E
1D44
1F6B
1DC2
1F51
20AA
21CF
1F98
1E90
1D4D
1E3C
1D7D
1C8B
1C65
1E4A
1E27
1C3A
1F14
1D59
1D71
1D8B
20A8
2026
2002
2043
1DE1
1C81
2013
1DDD
20E5
1EB2
1AE9
1EF1
1DED
1F42
1D70
1CB3
1E05
1C66
1E7F
1D66
1EE6
1D1B
1E20
1E85
1D35
1F2B
1D79
210C
1DB9
1DFC
1F29
1CD4
1E51
1DAD
1DC9
1C90
2149
1FC0
1D8D
1D17
1FDD
1D46
1CCA
2078
1E0F
1DD5
1DFA
1D0A
1EAA
1CC4
1F1B
1F25
1F38
1E05
1F42
200D
1C73
1F89
1EDA
2076
1DCF
1EA4
1F2F
2114
1D91
1D74
1EB6
1EFA
1E2C
1CD6
1DAD
1A78
1D13
1D86
1A28
1CB2
1BAC
1E8B
1D5E
1E7E
1BEC
1ED5
1E96
1C19
2009
1DE6
1DE8
1FAC
1B11
1E16
1E64
1F5B
1F65
1DFB
1E4C
1D05
